
5C 3B 41 43 45 45 45 00 00 00 00 5B 45 00 F9 E5 45 45 45 45 45 45 45 45 
45 45 45 45 45 45 45 45 45 45 45 45 45 45 45 45 45 45 45 45 45 45 45 45 
45 45 45 45 45 45 45 45 45 00 00 45 45 45 45 45 45 45 45 45 00 00 45 45 
45 45 45 45 45 45 45 45 00 00 00 00 45 45 45 45 00 00 00 00 00 00 00 00 
00 00 00 00 00 00 00 00 00 00 00 00 45 45 45 45 45 45 45 45 45 45 45 45 
45 45 45 00 00 45 45 45 45 45 00 00 45 45 45 45 45 45 45 45 45 45 45 45 
45 45 45 45 45 45 45 45 45 45 45 
00 24 AD 02 0C 18 55 05 61 BD 09 01 07 20 07 18 0D 02 00 07 03 AD 08 10 
0B 05 7A 40 9B 48 99 75 01 00 0B 00 93 0A 88 05 08 08 08 05 08 05 C9 03 
9A 08 05 C2 90 02 05 01 05 02 FF 04 0A 00 79 0A 88 05 04 00 00 9E 10 00 
00 01 05 01 18 18 16 8A 05 89 40 43 40 05 3F 30 01 88 05 0E AD 01 00 00 
96 05 01 40 00 00 0B 02 88 05 88 01 0A 02 88 05 88 01 02 08 38 00 05 02 
4B CD 03 05 07 0E 00 00 00 75 00 01 00 05 01 2D AF 02 05 0E 00 0E 10 00 
00 01 02 0A 0E A0 AC C0 00 1C 00 05 10 0F 05 00 17 00 02 80 03 88 03 88 
0F 00 0F 00 C0 09 05 08 00 01 05 C0 02 89 88 02 98 01 C8 02 01 C0 88 02 
4A 01 09 91 01 02 05 03 00 88 02 A8 02 C0 02 06 09 00 C0 BB 01 02 10 05 
05 07 08 9C 0E 05 00 A8 00 01 00 EC 80 01 05 01 09 8F 5C 01 88 71 10 45 
A5 00 88 94 08 00 0E A4 AD 00 01 02 61 00 00 78 A3 00 00 38 81 01 08 01 
04 0E 00 01 2F 01 88 05 01 CD 21 00 8A 01 C9 03 5C 08 01 C2 90 02 05 68 
00 C0 01 DD E8 00 14 00 00 00 05 02 97 2A 00 58 00 C0 01 01 00 48 02 C9 
03 3B 08 02 C2 90 02 05 04 62 05 05 01 00 AD 00 00 00 00 8D 80 FF 04 01 
05 0D 08 00 05 00 05 08 BC 00 05 08 08 08 F4 AC 0E 01 64 08 08 00 5A 00 
56 70 C0 00 05 00 05 05 00 88 00 C0 02 A8 00 41 09 00 C0 6B 00 C9 88 5B 
08 00 00 00 A4 A0 00 02 98 00 10 01 9C 40 9A 00 4A 01 01 05 05 01 A0 08 
F8 00 05 00 0E 01 30 00 05 00 8B 70 E0 10 18 01 00 10 FF 82 00 4B 40 04 
00 91 02 44 C9 1F 08 04 E9 10 A0 00 00 02 0D 08 9B 03 00 02 01 08 00 00 
A5 00 03 03 03 41 03 EB 08 02 02 01 17 06 49 00 B0 97 EC B8 00 14 02 00 
40 11 40 0F 03 28 75 00 04 04 A5 6F 40 10 00 01 A7 FF 0B A4 66 C0 00 A0 
08 03 88 5F 01 01 20 4F 08 59 C0 00 40 03 88 01 08 00 04 00 18 18 96 00 
C9 06 01 08 A8 00 AB 09 00 C0 2D 00 C9 88 01 B6 00 C2 00 08 06 02 02 40 
A4 B4 00 01 02 00 A0 08 00 9B 08 99 08 8D 09 09 06 01 00 05 86 90 14 23 
82 81 34 DF 8A 40 88 02 00 08 00 00 82 02 00 40 00 00 48 00 08 04 40 40 
00 69 08 40 44 0E 00 01 18 BD 00 04 01 FF 5C 07 04 07 01 40 02 61 08 F4 
0E 00 C0 01 04 0E E0 00 C2 01 C9 03 52 08 01 C2 90 02 04 07 B0 01 18 53 
01 C9 88 01 40 08 00 02 BC AD 00 00 08 00 48 70 C4 00 14 00 F0 00 01 B0 
02 02 00 00 88 00 40 02 02 00 03 09 81 01 03 52 80 00 BD 02 01 04 02 00 
01 70 10 00 00 02 01 00 01 70 10 98 AD 01 00 00 02 48 70 00 75 B8 C7 A8 
00 14 02 00 04 0C 01 04 59 80 01 08 04 04 0C 00 81 02 01 02 00 02 88 00 
89 18 85 00 02 C0 88 00 05 08 00 10 00 88 01 04 00 00 10 A9 49 04 1E 43 
04 A6 3D A5 A1 08 A4 0E 00 FF 9C 00 01 FF 00 04 9A C0 01 04 98 40 95 40 
04 01 03 00 D8 E0 08 A9 09 8C 00 07 01 00 04 0E 01 00 04 A9 00 02 A6 08 
BC 0E AD 4C 2F 01 00 BD 80 25 00 08 00 01 53 01 01 08 8A 05 01 00 1C 14 
00 04 00 69 06 40 40 06 49 88 06 06 48 40 03 06 40 40 06 49 88 06 06 48 
40 02 00 52 04 02 01 48 00 09 42 00 9D 00 01 02 C9 42 00 04 00 41 04 00 
81 00 0F 00 42 04 04 02 AB 07 AD 00 AD 07 40 BD 40 04 00 F3 04 AD BD 02 
00 14 00 35 00 01 00 02 D3 03 00 10 08 00 04 00 8F AD 26 00 02 B8 CC 08 
F4 40 44 14 9C A0 A4 0E 00 00 43 01 C9 88 12 01 C0 88 01 4A 99 03 00 00 
10 00 2E 00 C0 29 00 88 02 98 01 C0 01 20 09 00 C0 BF 1D 01 C8 C4 0E 00 
00 01 80 88 01 04 01 80 01 C0 10 0B 00 88 01 C0 01 04 09 00 C0 87 10 A8 
98 08 85 02 00 10 0B 81 0F 00 6F 08 00 08 10 00 00 F1 00 00 00 F1 01 00 
01 02 08 70 10 00 6B 01 00 02 04 0E 00 01 32 08 08 AD 00 00 02 0E 09 08 
8D 55 00 30 9D 9D 00 10 A0 80 01 01 02 8D 9D 0E 8D AD 44 9D 00 5D 9B 00 
02 3D 00 02 08 39 00 02 36 00 02 08 32 00 27 08 8B 03 33 08 87 00 2B 08 
00 00 24 00 02 08 20 00 03 08 7D 02 7A 79 08 17 00 B4 08 00 08 76 02 73 
72 08 0C 00 9E 08 00 08 6E 8C F6 6C 4F 02 08 54 10 48 4C 08 8D FF 8D 66 
00 0E 00 0A 00 9D 5B 5B 08 5A 08 55 00 54 00 88 50 40 48 00 44 00 4A 08 
03 3A 9D 00 06 00 44 08 41 00 88 3E 00 80 20 00 0A 00 38 08 08 08 34 08 
33 08 00 2F 00 80 40 00 50 0E 00 2E C7 FF C4 6F FF 4F C9 00 CC B0 B1 00 
40 18 D1 09 00 B5 00 F0 FC 80 84 88 F0 54 18 30 0C 34 14 38 74 3C 78 70 
74 E4 E3 E2 E0 0E 02 01 68 E3 00 C6 7A C5 E3 93 92 01 61 00 02 8D 44 9A 
02 89 62 92 02 85 68 8A 00 02 80 00 AB 04 04 0A AB 02 8D 9D 7C A7 0A A6 
BA 71 00 02 A4 0A A3 AC 6A 00 02 A1 0A A0 9E 63 00 02 9E 0A 9D 90 5C 00 
02 9B 0A 9A 6F 55 00 02 CC 0A CB 61 4E 00 02 59 0A C6 66 C5 FF 4D C3 FF 
47 C1 4F 02 3E 00 80 02 3A 00 02 4F 02 0E 00 00 0A 02 00 4A B2 43 2C 00 
02 00 CA AD 35 25 00 02 00 4A A8 27 08 1D 00 A8 08 9D 02 00 16 00 9A 88 
98 02 00 0F 00 8C 08 93 02 00 08 07 01 05 4F FF D4 00 21 54 07 C8 08 00 
FF CB 00 08 50 73 61 6E 64 CA 80 AD AD AD AD 04 00 08 F1 00 80 EB 04 00 
B4 6F 00 B7 00 04 00 B8 AC 14 16 18 01 A7 4F FF 08 22 20 1C 00 CC 28 CE 
2C D0 34 D2 38 D4 3C D6 40 D8 48 DA 4C DD 60 80 AD AD AD AD 04 8D 00 1B 
00 08 81 00 80 7B 00 FF 1A 01 49 01 1B 1A 88 9D 01 43 04 04 00 6F 6F 00 
6C 00 FF 40 4D 00 B7 01 02 03 BD BD BD 00 33 00 0C 33 80 DE 68 DC 6C 30 
44 8C 90 04 DB 50 1C 20 24 28 2C 30 00 14 08 06 04 00 0A 0B 00 3F 4F FF 
9D 9D 9D 39 FF FF FF 40 01 41 FF 31 08 6F 41 FF 2C 00 D1 04 06 00 6F 6F 
41 10 80 BF 00 04 B9 00 0C B3 00 06 08 06 04 00 0A 0B 00 11 4F FF 9D 9D 
9D 0B FF FF FF 40 01 41 FF 03 00 7F CC 54 00 77 BD BD 00 09 DF DF C2 80 
65 08 CA 09 DF DF C0 41 FF C3 4F FF C0 4F FF 00 00 14 10 0E 0C 02 11 12 
13 1A 00 08 2D 11 12 13 00 02 01 00 02 18 80 17 C0 06 A2 0C 0E 10 00 9D 
4F FF 05 E0 00 14 10 0E 0C 02 11 12 13 D2 00 08 E5 11 12 13 00 02 01 00 
02 18 80 CF C0 06 7E 0C 0E 10 00 79 4F FF 05 8F AD AD AD 00 0D 0D 03 8E 
00 08 A1 5C FF 9D 9D 9D 64 FF FF FF 40 01 41 FF 5C 00 81 BD BD 00 09 DF 
DF C2 80 6F 08 4F 09 DF DF C0 41 FF 48 4F FF 45 4F FF 00 02 8F AD AD AD 
00 0D 0D 03 24 00 08 37 A0 FF 9D 9D 9D 2F FF FF FF 40 01 41 FF 27 00 17 
BD BD 00 09 DF DF C2 80 05 08 1A 09 DF DF C0 41 FF 13 4F FF 10 4F FF 00 
10 09 00 14 0C 06 04 00 0D 0E 0F B6 00 54 4F FF 9D 9D 9D 67 FF FF FF 40 
01 41 FF 5F 00 AB 59 FF BD AD 00 08 06 08 08 0A 82 01 6F 6F 41 41 FF 9D 
BD 40 0A 08 40 08 0A 82 01 6F 6F 41 41 FF BD 40 08 06 08 88 36 4F FF 33 
4F FF 05 8F AD AD AD 01 0A BD BD BD 01 83 00 0C 0A 0C FF 38 BD 3A 08 FF 
BD 00 08 BD 01 63 8F 20 02 00 00 00 00 7F 05 00 06 9D 08 14 08 18 08 70 
03 08 04 54 0E 00 01 60 0E 00 01 E1 0E 04 00 04 22 04 01 C1 0E 04 00 CB 
04 02 0E 06 08 06 04 78 59 81 FF 00 F3 BD 06 04 1F FF 38 08 1F FF 00 FF 
78 37 81 FF 00 8F AD AD AD 00 0E A1 6F FF BD BD 60 00 83 BD 60 00 7B 00 
77 0E 93 8F 06 08 06 04 00 FF 00 D1 5F 06 04 1F FF 38 08 1F FF 79 FF 00 
FF 00 08 00 FF 00 D9 39 04 55 8F AD AD AD 00 04 11 00 33 6F FF BD BD 60 
00 15 00 08 1F FF 38 41 00 05 F9 09 04 11 00 19 8F 06 08 06 04 00 FF 00 
EC E5 06 04 1F FF 38 08 1F FF 38 60 00 CD B9 1F FF 00 FF 00 0E 01 00 FF 
00 E6 B3 01 AF 00 AB 0C C7 00 14 02 00 10 AB 6F FF 00 FF 00 FF 00 FF 00 
FF 05 00 14 02 00 10 89 6F FF 00 FF 00 FF 00 FF 00 FF 05 8F AD AD AD 00 
0C 65 6F FF BD BD 60 00 47 BD 60 00 3F 0C 5B 8F 01 00 FF 00 F6 2D 01 29 
08 45 08 00 FF 00 FE 19 04 35 0E 00 08 1D 6F FF 00 FF 00 FF 0E 02 00 0C 
07 6F FF 01 FF 02 FF 00 FF 0E 00 04 EF 6F FF 00 FF 08 06 08 06 04 00 FF 
00 EF C3 06 04 1F FF B7 BD 60 00 B1 B9 1F FF B9 FF 00 FF 00 8F 03 01 00 
FF 00 DF 91 00 8D 00 89 00 85 00 81 00 7D 00 79 00 75 00 71 00 6D 00 69 
00 65 00 61 00 5D 38 79 8F 01 00 FF 00 FD 4B 01 47 08 63 0E 00 08 4B 6F 
FF 00 FF 00 FF 0E 01 00 FF 00 D6 21 00 1D 08 39 8F AD AD AD 00 03 11 00 
17 6F FF BD BD 60 00 F9 00 08 1F FF 38 04 1F FF 00 FF F8 73 81 FF 00 0E 
01 00 FF 00 E5 CD 01 C9 02 C5 0C E1 8F AD AD AD 00 14 C3 6F FF BD BD 60 
00 A5 00 08 1F FF 38 60 00 95 B9 1F FF 00 FF 00 00 14 02 00 1C 8D 6F FF 
01 FF 02 FF 03 FF 06 FF 07 FF 08 FF 00 FF 05 8F AD AD AD 00 14 5D 6F FF 
BD BD 60 00 3F BD 60 00 37 79 33 00 2F 14 4B 8F AD 03 01 00 FF 00 E4 19 
01 15 02 11 03 0D 10 29 00 01 00 FF 00 CB FB 01 F7 08 13 8F 03 01 00 FF 
00 DE E3 00 DF 00 DB 00 D7 00 D3 00 CF 00 CB 00 C7 00 C3 00 BF 00 BB 00 
B7 00 B3 00 AF 38 CB 8F 01 00 FF 00 EA 9D 01 99 08 B5 01 0E 02 00 0C 99 
6F FF 00 FF 00 FF 00 FF 0E 00 04 81 6F FF 00 FF 08 02 00 0C 6F 6F FF 00 
FF 00 FF 00 FF 0E 02 00 0C 55 6F FF 00 FF 00 FF 00 FF 0E 02 00 0C 3B 6F 
FF 01 FF 02 FF 00 FF 0E 06 08 06 04 00 FF 00 EB 07 06 04 1F FF 38 08 1F 
FF 38 60 00 EF B9 1F FF 00 FF 00 8F 01 0A 08 00 FF 00 F4 D1 0A 08 1F FF 
00 FF B7 B7 60 00 BB B9 B7 14 D3 8F 00 04 BB 6F FF 00 FF 08 06 08 06 04 
00 FF 00 D3 8F 06 04 1F FF B7 BD 60 00 7D 04 FF 00 FF 00 0E 00 08 7B 6F 
FF 00 FF 00 FF 0E 06 08 06 04 00 FF 00 F0 4B 06 04 1F FF B7 BD 60 00 39 
B9 1F FF B9 FF 00 FF 00 08 00 FF 00 CD 1D 04 39 8F AD AD AD 00 03 11 00 
17 6F FF BD BD 60 00 F9 00 08 1F FF 38 04 1F FF 00 FF F8 73 81 FF 00 8F 
AD AD AD 00 10 DD 6F FF BD BD 60 00 BF BD 60 00 B7 00 B3 10 CF 8F 02 00 
0C B5 6F FF 00 FF 00 FF 00 FF 0E 00 04 9D 6F FF 00 FF 08 01 00 FF 00 E0 
77 01 73 08 8F 08 00 FF 00 D0 63 04 7F 00 14 02 00 10 63 6F FF 00 FF 00 
FF 00 FF 00 FF 05 08 CB FE 02 02 08 04 00 14 E6 88 00 F0 6F FE A4 F0 18 
00 BD 00 A0 00 FE 28 16 C0 24 99 AF 78 53 00 DC 16 B9 10 47 FE 28 B4 78 
01 02 03 E2 35 00 A0 78 01 02 03 E2 25 A1 00 AD FE 4F 00 4F 00 7F F8 78 
4F 00 FF 28 16 C0 20 6C AF 78 F9 06 46 00 1E 00 7F 3D 8D 02 00 00 04 40 
E8 04 01 18 18 97 05 0F 00 04 40 D2 04 01 18 18 81 CC 01 18 3C 00 7F 01 
9A 00 F0 16 F7 8D 02 00 00 04 40 A2 04 01 18 18 51 BF 0F 00 04 40 8C 04 
01 18 18 3B C2 01 18 7C 3C FE 00 60 E7 00 10 B8 01 04 18 1B D7 0F 00 04 
40 56 04 01 AC 18 01 18 8C 00 FE A6 F0 16 00 81 AB 00 5C 60 74 00 14 86 
88 00 F0 6F FE 00 28 FA 64 01 02 03 E2 03 00 B4 64 01 02 03 E2 F3 4F 64 
00 FE BE AF 16 00 33 5D 00 53 54 43 42 45 53 4C 54 49 00 7C 00 14 28 88 
00 F0 6F FE AB 64 00 FE AD 8C 00 FE 28 2D 64 01 02 03 E2 97 00 4F 64 01 
02 03 E2 87 03 00 42 00 4C 54 6C 80 62 00 14 D6 88 00 F0 6F FE 00 28 FA 
64 01 02 03 E2 53 00 B4 64 01 02 03 E2 43 4F 64 00 FE 7B AF 16 00 83 4F 
C8 00 FE FE 05 6F 4E 52 48 00 14 7E 88 00 F0 6F FE 70 64 00 FE 28 BE 64 
01 02 03 E2 F5 71 00 52 48 8C 64 00 14 4A 88 00 F0 6F FE CA 64 00 FE 28 
BE 64 01 02 03 E2 C1 3D 00 6C 00 14 1C 88 00 F0 6F FE C3 F0 18 00 F3 00 
8C 00 FE BC F0 18 00 E1 00 DC 16 B5 20 47 FE FE 05 43 45 45 52 54 20 57 
48 50 53 54 54 45 49 00 53 54 20 49 54 00 45 59 45 49 20 4C 4E 00 50 57 
48 4E 41 50 53 54 54 41 52 00 53 45 45 00 AD 28 1F 6E 31 7E 5F FE 28 1F 
68 32 77 5F FE 28 1F 62 33 70 5F FE 28 1F 5C 34 69 8C FE 28 1F 56 35 62 
8C FE 28 1F 50 36 5B 8C FE 28 1F 4A 37 54 B9 FE 28 1F 44 38 4D B9 FE 28 
1F 3E 39 46 B9 FE 28 1F 38 30 3F E6 FE 28 16 32 1F 38 E6 FE 28 16 2D 21 
31 E6 FE 01 30 50 18 F9 00 14 FE 27 50 18 00 B1 00 28 00 FE 01 00 46 00 
E7 B7 AA 1F FE 05 45 52 31 32 33 34 35 36 37 38 39 30 43 52 53 43 04 08 
0C 84 7F 90 8C 0E 00 02 A8 02 02 12 02 58 00 02 00 02 02 C0 09 02 D8 4F 
41 4F 81 70 01 01 80 10 2F 0A 6F 02 02 02 02 02 01 00 1C 14 00 04 00 50 
C7 02 00 48 03 02 02 02 88 02 01 08 01 8F 14 81 02 02 02 04 00 8D 50 99 
00 00 41 00 00 81 00 00 81 01 00 01 4F 41 4F 81 9D 81 00 02 00 02 00 00 
00 00 0E 00 FD 02 88 02 40 02 28 00 00 2C 01 00 01 00 14 00 03 E7 49 06 
C8 C8 02 03 00 00 02 01 03 40 02 00 AD 05 03 00 02 02 07 C0 88 05 16 03 
00 07 00 01 07 FD 01 02 02 01 04 02 00 06 68 73 06 7E 02 72 40 FF 07 41 
80 FF 07 81 68 04 65 07 7E 07 10 E3 00 FC 00 02 A0 00 FC 9A 00 FC 00 09 
00 1C 02 00 06 05 70 06 89 02 02 06 03 71 80 FF 06 00 01 06 FD 48 38 01 
03 88 88 04 00 02 04 00 AD 05 03 00 02 01 08 00 08 07 08 8B C8 88 88 00 
FD 08 08 00 01 08 FD 01 01 0F 08 08 00 01 08 FD 08 B1 BC 55 18 B6 4F 20 
FD 01 01 FC 01 08 B0 02 00 08 B0 02 00 01 68 FD 20 00 D0 00 01 08 FD 01 
08 24 05 00 FC 00 7D 65 08 2D FB 08 27 F5 FF 00 AD 02 00 05 04 92 80 24 
01 EF 88 88 40 FF 05 00 01 05 FC 48 38 01 03 48 48 03 00 02 03 00 AD 01 
00 00 02 05 60 C0 01 00 04 C8 02 00 02 02 00 00 F8 80 01 01 0E 00 01 02 
89 40 01 01 AD 00 80 01 70 00 01 00 01 02 01 71 AD 00 90 02 AD 8D 00 04 
81 02 AD 00 90 02 0E 01 00 58 00 45 40 21 00 3D B8 00 80 02 00 02 80 00 
40 88 00 00 23 00 C0 02 00 02 80 00 00 88 00 0A 00 C8 02 00 18 88 88 88 
88 0E 00 00 00 02 80 00 40 88 00 00 00 01 12 F7 08 01 11 41 01 78 24 E1 
FC FF 88 88 80 E9 4F 81 20 16 00 00 01 00 FC 08 4E 48 48 00 00 00 FF 01 
08 00 F4 80 01 01 01 F2 0E 08 00 10 01 00 01 70 00 D6 00 89 02 01 00 01 
01 AD 00 00 C0 02 01 00 01 70 10 00 02 0A 02 51 50 17 42 02 00 31 02 02 
0A 04 AD 00 01 0A 01 00 31 05 06 42 05 40 01 EC 70 50 54 08 02 02 02 01 
AD 00 00 00 00 01 02 AD 00 03 02 70 01 08 9D E0 79 00 5F 02 01 7F 90 77 
00 C0 71 02 00 01 02 01 7C 40 C0 5F 00 5F 02 01 FF 02 00 01 0E 04 06 00 
06 00 84 B0 0E 00 02 AD 07 01 00 01 01 08 00 08 00 00 00 0E 04 9D 50 13 
00 02 14 55 02 14 4F 03 00 0E 01 01 00 6C 00 C3 08 00 BD 0E 01 01 00 58 
00 1C 00 A3 0E 8D 00 CB 04 D3 02 00 CD 8D 9D 05 9D 40 05 05 F6 AB 08 00 
00 BB 0E 00 00 FF 00 00 8D 00 65 08 0E 08 00 01 FF 9D 00 4A 00 0E AD 01 
00 01 F2 08 00 00 3D 0E 01 00 01 E0 02 A4 00 0E AD 03 01 00 01 CC 41 60 
01 00 02 02 41 03 00 0B 00 8D 00 04 3D 08 02 00 01 0E 04 00 06 00 0E 04 
01 FF BD C0 00 D6 00 FF AD 00 FF BD 41 AD BD 0E 01 00 00 00 01 01 FF 00 
00 0E AD 00 00 AD BD BD 88 0E AD 00 BD 00 80 1F 00 00 FC 01 00 02 FF 0E 
01 00 00 02 01 01 FF 01 0F FF 0C 00 79 00 FF 02 00 02 0E A8 FF 00 08 1F 
04 04 FC AD BD 0E AD AD 01 00 00 BD 02 FF 02 03 FF 02 08 FF BD 00 FF 00 
02 02 01 00 18 40 03 03 41 02 03 00 11 08 FF 00 0C BD 40 10 10 BA 00 00 
00 30 33 FF 02 02 11 01 02 00 1E 2A FF 02 02 ED 25 10 08 00 14 02 00 01 
FF 03 03 02 00 B6 40 03 00 F2 FF 05 00 14 02 00 01 FF 03 03 00 FF 02 02 
02 00 01 F0 FF 05 E8 00 2C 00 03 8D 00 1F 18 BD 40 01 02 02 01 41 00 00 
03 07 41 2D 03 03 00 03 03 91 03 04 00 09 04 8D 9D 9D 42 2B 81 00 00 9D 
05 12 9D 02 40 68 80 05 05 2B 88 02 02 01 0B 0E 04 00 04 72 E4 0E 00 FF 
AD 33 FF AD BD BD 88 BD 00 00 01 00 14 10 00 02 03 10 00 7D 88 00 77 BD 
00 20 08 01 BF 03 41 78 01 FF 01 01 40 02 00 EF 02 FF BD 00 0A FF 02 10 
AD BD 00 05 E4 E8 1F 00 0A FF 08 01 00 30 00 39 9D 40 0A 4F 39 40 00 00 
01 25 00 AD 27 00 41 00 40 04 08 00 00 0A 64 00 03 41 89 AD 07 0A D5 D9 
E4 08 1F 02 00 8D 0C 9D 02 0C 98 0C 8D 00 0C 00 01 7A 9D 01 4F 4B 0C F4 
88 64 01 0C 4F B0 61 40 B0 8D 30 01 10 9D 02 B0 61 40 B0 8D 30 01 0C 0A 
F4 54 8D 30 9D 02 8D 00 00 AD 02 00 8D 00 0D 8D 11 9D 02 0E 98 0E 8D 9D 
40 0C 9D 08 E7 01 0D 9D 08 9D 40 0E 0D 8D 01 0D 00 02 0E 0A 70 8D 01 00 
8D B2 90 00 E0 10 9D 9D 4F 4B C0 10 8D B0 30 9D A4 90 E0 10 9D BC 9D 01 
10 7A F4 64 51 F4 09 D0 00 04 E0 10 9D BC 9D 01 10 B0 61 40 B0 8D 30 9D 
9D BC 01 10 B0 61 40 09 D0 08 3A 00 00 20 8D 9D 01 8D 2E 9D BC 9D 01 10 
B0 61 40 B0 8D 30 9D BC 01 09 10 B0 61 40 09 D0 9D 01 9D F2 20 8D 9D 01 
8D 2E 9D 9D BC 01 10 B0 61 40 09 D0 9D 00 00 AD 8D 01 00 09 8D 0C 9D 01 
09 98 09 8D 9D 9D 88 04 AD 01 00 08 00 08 9D 08 9D 40 08 9D 08 EC 9D 00 
04 AD 8D 00 8D 00 05 00 05 0A 05 8D 9D 9D 88 01 70 10 08 00 8D 00 09 01 
09 9D 08 88 00 9D 40 09 08 09 E8 04 00 00 80 AD 02 10 00 8D 00 00 11 8D 
00 14 00 08 01 14 8D 18 9D 00 08 88 9D 01 C0 11 30 8D 02 8D 03 03 00 08 
38 12 06 8D 00 12 00 9D 51 0B 8D 9D 02 8D 00 09 12 03 51 12 81 40 05 13 
A2 C8 14 F5 12 80 18 00 02 03 8D 1B 03 02 99 0E 18 08 10 01 03 20 10 00 
02 02 02 00 00 70 08 00 02 40 00 08 F7 04 70 08 A9 6C C1 22 5F F1 7B C7 
00 3E 01 01 90 0E A2 00 30 9C 00 01 28 00 01 22 00 00 B9 08 B9 00 08 BD 
BD 08 23 09 D4 1D 01 10 0A 40 09 FA 01 00 7E 00 7C 88 01 01 48 87 09 50 
01 AA B8 01 01 01 A0 01 01 9A E3 01 20 C6 00 00 1C 00 01 BA 00 86 09 00 
00 04 07 76 08 72 BB 01 22 40 9C 00 19 00 01 92 00 72 08 00 6F 08 00 01 
00 7E 97 E7 DF B4 92 7F 01 3A 83 01 34 66 00 01 AC 03 00 02 00 01 54 6D 
E4 DC A0 68 01 12 5B 01 20 3E 00 05 00 01 34 4D F5 93 4A 01 F4 3D 01 20 
20 00 1C 00 F7 51 87 0D 33 BB 6F 23 77 C1 15 33 51 08 65 81 47 B4 41 08 
2D 30 07 09 08 28 01 00 24 23 0A 59 C3 10 1F 02 00 1B 1A 0A 59 C3 10 0C 
81 14 40 03 02 00 0E 00 28 C7 09 08 A4 07 00 1A 08 C0 08 06 A8 AC B0 4A 
08 00 0F 43 0F 00 4E 99 3F 81 3E 08 3A 00 02 37 39 08 00 33 00 03 00 07 
30 81 2E 08 00 20 6F E4 CB 09 01 20 CD CD CD CD CD CD CD CD CD CD 08 08 
00 9D 08 70 00 13 70 FD 0E 00 01 07 0C 81 00 02 0A 70 A1 51 B9 15 A0 AC 
A4 A8 B0 B4 68 40 08 08 70 65 40 08 08 04 70 08 04 70 08 04 70 08 04 70 
08 01 53 20 08 08 08 50 40 08 4E 00 01 00 46 40 08 08 04 47 40 08 45 40 
08 42 20 08 38 40 08 08 20 39 40 08 37 40 08 34 20 08 2A 40 08 08 01 2E 
40 08 2C 40 01 00 1E 40 08 08 02 22 40 08 20 80 01 00 08 08 10 17 40 08 
08 08 00 08 08 08 70 08 08 70 08 08 70 08 2C 00 1C FC 00 1C FC 00 1C FC 
08 C5 69 08 6D 08 AD 5E 00 88 5B 09 40 00 10 D0 B8 B6 00 BC 10 00 4E 00 
00 00 70 48 10 D0 20 BC 10 00 0B 59 08 00 00 00 00 3A 90 40 20 80 08 00 
35 00 1C C0 00 00 08 90 01 B8 F8 B8 30 81 28 00 02 01 00 FF 04 1F 00 70 
1D 0C 0B 08 00 00 00 00 08 00 50 B0 06 12 00 04 03 0E 70 0C 0A E5 08 00 
00 00 00 08 80 EC F0 F4 E8 08 03 64 08 00 C3 01 BF 02 BB 03 B7 04 B3 05 
AF 06 AB 07 A7 00 08 AD 68 B5 00 99 01 95 02 91 03 8D 04 89 05 85 06 81 
09 08 06 08 5D 40 08 08 06 09 00 25 08 00 AD 21 08 00 1F 2F 08 08 08 61 
4D 08 08 08 00 01 08 0B 09 21 09 40 08 F3 00 09 05 FC 06 08 00 FB 0B 01 
70 E6 CD 49 40 08 08 02 46 40 08 08 40 41 40 08 08 70 3D 40 08 08 70 38 
40 08 08 70 33 40 08 08 10 2F 40 08 08 80 2B 40 08 08 02 27 08 08 0F 25 
08 08 7F 22 08 08 80 1E 20 08 08 1A 40 08 08 02 70 08 00 00 FB 00 08 00 
FB 00 01 01 70 1C 08 20 2C 1C 10 04 C8 10 00 0C 08 AD 00 00 48 4F 81 00 
C8 00 08 00 02 AD 00 00 02 AD 01 00 02 02 02 80 02 89 01 88 01 00 40 04 
AD 01 01 03 B0 03 00 0C 08 02 40 02 03 88 02 40 01 49 02 88 02 00 08 08 
08 70 08 00 49 88 00 89 00 01 00 88 00 80 00 01 08 08 00 70 AD 02 00 00 
00 80 00 00 00 00 00 00 00 00 00 00 00 6F 01 20 00 70 26 40 08 08 60 00 
21 08 79 08 40 00 00 70 4F 08 19 80 70 00 13 40 08 10 40 0E 08 37 08 4F 
08 00 28 71 29 07 7F 06 08 20 24 34 04 14 10 AD 34 08 00 FF 00 00 FF 2E 
40 2D 00 2B C0 FE 01 00 00 05 40 00 F9 00 00 00 05 40 00 F9 00 FB 00 03 
00 00 16 08 00 10 40 02 AD 01 0F 08 00 08 40 02 AD 00 00 07 02 58 18 1C 
58 04 08 10 27 40 08 08 08 24 40 08 08 08 21 40 08 08 0F 1E 6F 08 00 1B 
40 08 06 15 40 08 AD 15 08 08 08 13 40 08 00 FB 00 0C 08 02 38 08 20 1C 
28 00 14 A0 A4 30 0C 28 04 A8 98 EF 5F 1A 10 20 20 10 08 A0 11 03 00 11 
08 08 F0 10 B0 80 70 A0 11 4F 80 70 68 08 F0 09 00 11 4E CE 00 80 62 4E 
CE 01 70 70 0E 00 00 07 00 00 09 00 0E 00 1A 20 08 00 42 80 12 14 00 80 
0A 0E 00 01 00 80 FA 01 AD 00 70 00 70 01 08 70 1C 08 18 00 5F 8B 83 10 
70 78 10 70 38 2C 05 24 08 08 08 2A 22 03 40 22 F7 14 D8 12 03 43 12 0A 
03 43 83 C3 12 12 0B 49 52 60 08 FD 21 20 00 08 00 00 1B 00 FF FD 01 00 
15 00 00 20 CB 0E 00 04 00 0C 00 FF FD 01 00 8D 05 00 00 00 AB 04 20 08 
A7 CC BE 0E 00 D9 FB 8D 9D 19 FF 00 00 8D 9D 41 8D F8 8D FF 9D 41 8D F8 
B3 02 40 9D 40 04 04 D4 0E 08 F7 08 03 01 00 08 1F F3 15 40 1E EB 12 08 
00 0F 00 FF 00 0A 08 00 06 00 DB E1 08 01 70 00 E5 58 08 FF 8D 9D 18 00 
02 8D 9D 08 16 E9 08 00 11 40 11 00 0C 00 0B 08 09 00 40 FF 04 08 02 70 
59 5A E7 00 0A 71 03 00 00 B2 10 F6 08 11 41 04 41 08 0E 08 0D 0F 0F 10 
12 18 12 18 04 02 20 12 18 71 14 B0 01 6B 12 10 12 0C 08 54 01 21 40 7F 
FF 0A A5 02 04 A5 B0 FF 5C 68 80 70 00 00 F8 40 1C 00 48 10 7F 01 03 01 
01 5B EA F5 01 01 0F C5 12 00 1C 30 1C 60 BF D4 0E FF FF FA 02 02 BA 40 
F2 AD 01 00 00 00 08 80 F9 01 01 00 00 57 48 4D 00 14 00 01 02 03 0C 00 
CF 01 00 05 0E FF FF 64 B9 40 F6 50 42 4F DD 08 45 19 33 08 3F 08 41 08 
1B 08 1D 08 00 00 A4 0E 04 BB BD 68 3E 4E CE 08 F0 03 0C 0C 6F 87 0A 07 
3C 5A 01 ED 1B 00 FE 5C 00 28 00 08 FB 38 05 20 B0 00 0A 80 10 28 20 80 
00 FF 38 F8 FF 10 14 00 14 00 01 02 03 0A 80 F9 01 01 00 00 00 FE FE FC 
44 4C 3B F8 0F 73 17 02 92 90 52 0B 55 03 08 90 FF 73 A4 E5 5C 68 00 14 
00 01 02 03 09 00 D3 01 00 05 AD 00 40 FB 54 44 D5 00 14 00 01 02 03 08 
00 AD 01 00 05 08 FF FC 54 48 21 AD 01 FE 00 FF 00 FF 00 FF 00 FF 00 FF 
00 FF FA FE 08 49 00 08 FE 06 08 08 54 00 08 00 59 10 00 00 5B 11 13 84 
52 00 04 FF 00 08 FF FF 03 70 09 70 14 4F 42 01 00 08 D0 C3 19 0B FF FF 
08 03 00 63 91 FE FE 70 
50 20 54 54 54 00 50 20 54 54 4F 43 50 20 54 54 41 26 20 4B 50 45 20 4F 
45 54 52 4F 43 42 49 50 20 54 54 4F 45 43 42 49 50 20 48 47 54 45 45 54 
4D 52 59 54 54 52 59 2D 49 45 4C 54 41 44 4C 54 54 41 44 20 63 20 00 20 
41 20 61 77 20 75 7A 75 61 50 4E 45 4E 4F 49 20 37 46 77 20 73 20 2E A5 
A5 A5 A5 A5 FF 00 00 
00 00 30 55 9C 01 70 B0 00 55 44 00 30 70 FF 01 24 80 FB 00 00 04 06 70 
4D FB 08 00 FF E5 15 2F 02 5B E8 5C 68 00 
